TRT-100100-EntropyCalibration2
numerical_input: 3de5d364
bot_mlp_0.squeeze.output: 3de5d364
bot_mlp_0.mm.w.output: 3b370d62
bot_mlp_0.b.w.output: 3b216898
bot_mlp_0.mm.output: 3d88a981
bot_mlp_0.b.output: 3d827f8d
bot_mlp_0.relu.output: 3d85d218
bot_mlp_1.mm.w.output: 3ad81dcc
bot_mlp_1.b.w.output: 39e99611
bot_mlp_1.mm.output: 3d5907b6
bot_mlp_1.b.output: 3d57173d
bot_mlp_1.relu.output: 3d555179
bot_mlp_2.mm.w.output: 3aec2933
bot_mlp_2.b.w.output: 3a1c7d38
bot_mlp_2.mm.output: 3c3b7b22
bot_mlp_2.b.output: 3c30b3d4
bot_mlp_2.relu.output: 3c30b3d4
bot_mlp.squeeze.output: 3c30b3d4
dlrmv2_embedding_lookup.output: 3c8adc96
interaction.unsqueeze.output: 3c8adc96
interaction.vx_0.output: 3cea029a
interaction.wvx_0.output: 3dbc34e4
interaction.left_term_0.output: 3d0de7ce
interaction.out_0.output: 3ca34f0a
interaction.vx_1.output: 3ca7cbf3
interaction.wvx_1.output: 3d3cafa0
interaction.left_term_1.output: 3c7eb50b
interaction.out_1.output: 3d1fbbbe
interaction.vx_2.output: 3cd1d3f1
interaction.wvx_2.output: 3d021d26
interaction.left_term_2.output: 3ce26cc2
interaction.out_2.output: 3d2b6e98
interaction.squeeze.output: 3d2b6e98
top_mlp_0.mm.w.output: 3ab7c6fc
top_mlp_0.b.w.output: 39a27f54
top_mlp_0.mm.output: 3d218e85
top_mlp_0.b.output: 3d21c2a7
top_mlp_0.relu.output: 3d28036d
top_mlp_1.mm.w.output: 3aa4c191
top_mlp_1.b.w.output: 3a073bd2
top_mlp_1.mm.output: 3da49f57
top_mlp_1.b.output: 3da23c64
top_mlp_1.relu.output: 3d8f6e05
top_mlp_2.mm.w.output: 3a9f9299
top_mlp_2.b.w.output: 39c89257
top_mlp_2.mm.output: 3d0c8e74
top_mlp_2.b.output: 3d15d406
top_mlp_2.relu.output: 3d074eb3
top_mlp_3.mm.w.output: 3aa74be6
top_mlp_3.b.w.output: 39fff830
top_mlp_3.mm.output: 3d388eb6
top_mlp_3.b.output: 3d3910a0
top_mlp_3.relu.output: 3d4fa515
final_linear.mm.w.output: 3a140b85
final_linear.b.w.output: 39204fe8
final_linear.mm.output: 3dc25a88
final_linear.b.output: 3dcaa1e3
sigmoid.output: 3ba745cb
