TRT-100100-EntropyCalibration2
images: 3caa54fc
res1_conv_out_0: 3da09645
res1_scale_value_output: 3b6e563c
res1_scale_out_0: 3c851300
res1_bias_value_output: 3bf9b795
res1_bias_out_0: 3c5d0914
res1_relu_out_0: 3c5d0914
res1_maxpool_out_0: 3c5d0914
res2a_branch2a_conv_out_0: 3ced4e32
res2a_branch1_conv_out_0: 3ca1b1f2
res2a_branch2a_scale_value_output: 3cc1f3fe
res2a_branch2a_scale_out_0: 3cad9eeb
res2a_branch1_scale_value_output: 3ce1aa4d
res2a_branch1_scale_out_0: 3cd58d20
res2a_branch2a_bias_value_output: 3bea1bb6
res2a_branch2a_bias_out_0: 3c8e316b
res2a_branch1_bias_value_output: 3c88aa25
res2a_branch1_bias_out_0: 3c31f5de
res2a_branch2a_relu_out_0: 3c3a241f
res2a_branch2b_conv_out_0: 3bd2ec62
res2a_branch2b_scale_value_output: 3dd817fc
res2a_branch2b_scale_out_0: 3c2e7e19
res2a_branch2b_bias_value_output: 3b80787d
res2a_branch2b_bias_out_0: 3c817698
res2a_branch2b_relu_out_0: 3c13c663
res2a_branch2c_conv_out_0: 3c362375
res2a_branch2c_scale_value_output: 3cfeb45c
res2a_branch2c_scale_out_0: 3c8fb6f5
res2a_branch2c_bias_value_output: 3baaa93a
res2a_branch2c_bias_out_0: 3c7a3f3b
res2a_residual_add_out_0: 3c8782c1
res2a_relu_out_0: 3c6ace8e
res2b_branch2a_conv_out_0: 3c1d7b32
res2b_branch2a_scale_value_output: 3c8a2420
res2b_branch2a_scale_out_0: 3c2aff28
res2b_branch2a_bias_value_output: 3b8f26b7
res2b_branch2a_bias_out_0: 3bfaff35
res2b_branch2a_relu_out_0: 3c133f63
res2b_branch2b_conv_out_0: 3b752023
res2b_branch2b_scale_value_output: 3d95db90
res2b_branch2b_scale_out_0: 3c58393d
res2b_branch2b_bias_value_output: 3bb75d8e
res2b_branch2b_bias_out_0: 3c44b6f2
res2b_branch2b_relu_out_0: 3c43b487
res2b_branch2c_conv_out_0: 3b90960b
res2b_branch2c_scale_value_output: 3d05f419
res2b_branch2c_scale_out_0: 3c27b606
res2b_branch2c_bias_value_output: 3bca30ac
res2b_branch2c_bias_out_0: 3c102f3d
res2b_residual_add_out_0: 3c7468a5
res2b_relu_out_0: 3c7a6043
res2c_branch2a_conv_out_0: 3bf7a91d
res2c_branch2a_scale_value_output: 3c5c6837
res2c_branch2a_scale_out_0: 3bfbf6ca
res2c_branch2a_bias_value_output: 3b4dc209
res2c_branch2a_bias_out_0: 3bf5ed5a
res2c_branch2a_relu_out_0: 3bef99df
res2c_branch2b_conv_out_0: 3b1693cf
res2c_branch2b_scale_value_output: 3d87a3bc
res2c_branch2b_scale_out_0: 3c2c1926
res2c_branch2b_bias_value_output: 3b7212a4
res2c_branch2b_bias_out_0: 3c1a1804
res2c_branch2b_relu_out_0: 3c17993f
res2c_branch2c_conv_out_0: 3b4c2b6a
res2c_branch2c_scale_value_output: 3d365d3c
res2c_branch2c_scale_out_0: 3c03f013
res2c_branch2c_bias_value_output: 3bd908a1
res2c_branch2c_bias_out_0: 3bf84388
res2c_residual_add_out_0: 3c6dbe06
res2c_relu_out_0: 3c712aca
res3a_branch2a_conv_out_0: 3c6081ae
res3a_branch1_conv_out_0: 3c2c3fcc
res3a_branch2a_scale_value_output: 3c7d60bf
res3a_branch2a_scale_out_0: 3c59adbc
res3a_branch1_scale_value_output: 3c8e8e28
res3a_branch1_scale_out_0: 3c436b8d
res3a_branch2a_bias_value_output: 3b9b0d24
res3a_branch2a_bias_out_0: 3c4b8764
res3a_branch1_bias_value_output: 3b968a3b
res3a_branch1_bias_out_0: 3c32b75d
res3a_branch2a_relu_out_0: 3c2b7f01
res3a_branch2b_conv_out_0: 3bb96d8e
res3a_branch2b_scale_value_output: 3d71945e
res3a_branch2b_scale_out_0: 3c80b890
res3a_branch2b_bias_value_output: 3b79b63b
res3a_branch2b_bias_out_0: 3c7e015b
res3a_branch2b_relu_out_0: 3c7c05d7
res3a_branch2c_conv_out_0: 3bd7fe5d
res3a_branch2c_scale_value_output: 3d0fa0bd
res3a_branch2c_scale_out_0: 3c84693a
res3a_branch2c_bias_value_output: 3b92e6fc
res3a_branch2c_bias_out_0: 3c65b50d
res3a_residual_add_out_0: 3c9e6938
res3a_relu_out_0: 3c93f2ac
res3b_branch2a_conv_out_0: 3c40d639
res3b_branch2a_scale_value_output: 3c83984e
res3b_branch2a_scale_out_0: 3c2c2ac5
res3b_branch2a_bias_value_output: 3b3c69e2
res3b_branch2a_bias_out_0: 3c283cfb
res3b_branch2a_relu_out_0: 3c29265b
res3b_branch2b_conv_out_0: 3b9f365e
res3b_branch2b_scale_value_output: 3d806aae
res3b_branch2b_scale_out_0: 3c9c5d11
res3b_branch2b_bias_value_output: 3b3781d4
res3b_branch2b_bias_out_0: 3c8eb550
res3b_branch2b_relu_out_0: 3c30258a
res3b_branch2c_conv_out_0: 3b856994
res3b_branch2c_scale_value_output: 3d2e619a
res3b_branch2c_scale_out_0: 3c827a58
res3b_branch2c_bias_value_output: 3b9f7cb9
res3b_branch2c_bias_out_0: 3c52065f
res3b_residual_add_out_0: 3c8b96e3
res3b_relu_out_0: 3c91418f
res3c_branch2a_conv_out_0: 3c31c51e
res3c_branch2a_scale_value_output: 3c6eac87
res3c_branch2a_scale_out_0: 3c2fc85b
res3c_branch2a_bias_value_output: 3b1c40e5
res3c_branch2a_bias_out_0: 3c37481e
res3c_branch2a_relu_out_0: 3c2f475a
res3c_branch2b_conv_out_0: 3b91f62b
res3c_branch2b_scale_value_output: 3d8dbe9c
res3c_branch2b_scale_out_0: 3c8c117b
res3c_branch2b_bias_value_output: 3b487a17
res3c_branch2b_bias_out_0: 3c889730
res3c_branch2b_relu_out_0: 3c5cb8ac
res3c_branch2c_conv_out_0: 3b77db4b
res3c_branch2c_scale_value_output: 3d25aa1a
res3c_branch2c_scale_out_0: 3c456b53
res3c_branch2c_bias_value_output: 3b3a71e6
res3c_branch2c_bias_out_0: 3c366311
res3c_residual_add_out_0: 3c88c49b
res3c_relu_out_0: 3c88c49b
res3d_branch2a_conv_out_0: 3c25ed75
res3d_branch2a_scale_value_output: 3c66e0da
res3d_branch2a_scale_out_0: 3c3c5e0f
res3d_branch2a_bias_value_output: 3b0eda94
res3d_branch2a_bias_out_0: 3c3d2d25
res3d_branch2a_relu_out_0: 3c2b7680
res3d_branch2b_conv_out_0: 3bb83887
res3d_branch2b_scale_value_output: 3da0d09a
res3d_branch2b_scale_out_0: 3c734837
res3d_branch2b_bias_value_output: 3b81f690
res3d_branch2b_bias_out_0: 3c6ec114
res3d_branch2b_relu_out_0: 3c3d894c
res3d_branch2c_conv_out_0: 3bbf6d12
res3d_branch2c_scale_value_output: 3d3553b4
res3d_branch2c_scale_out_0: 3c64b78c
res3d_branch2c_bias_value_output: 3b467a02
res3d_branch2c_bias_out_0: 3c4aa0f3
res3d_residual_add_out_0: 3c798d0e
res3d_relu_out_0: 3ca65031
res4a_branch2a_conv_out_0: 3c3907fa
res4a_branch1_conv_out_0: 3be7fe9e
/backbone/fpn/inner_blocks.0/Conv_output_0: 3c5efa65
res4a_branch2a_scale_value_output: 3c81d0f9
res4a_branch2a_scale_out_0: 3c758975
res4a_branch1_scale_value_output: 3c81fa9f
res4a_branch1_scale_out_0: 3c117ae3
/head/regression_head/conv/conv.5_3/Relu_output_0: 3c2033cd
/head/regression_head/conv/conv.5_2/Relu_output_0: 3c0dca5b
/head/classification_head/conv/conv.7_3/Relu_output_0: 3ce5bfa5
classification_head_50x50: 3e200d77
res4a_branch2a_bias_value_output: 3af3144e
res4a_branch2a_bias_out_0: 3c6ac73d
res4a_branch1_bias_value_output: 3b026496
res4a_branch1_bias_out_0: 3bf66cf0
/head/regression_head/conv/conv.6_1/Conv_output_0: 3c2fc764
/head/classification_head/conv/conv.3_4/Relu_output_0: 3d9f49fe
/head/classification_head/conv/conv.0/Conv_output_0: 3d98bd2b
/head/classification_head/conv/conv.5_2/Relu_output_0: 3cc1fd78
res4a_branch2a_relu_out_0: 3c5459d1
/head/regression_head/conv/conv.3/Relu_output_0: 3cc7db90
regression_head_50x50: 3c5659f2
res4a_branch2b_conv_out_0: 3bd828ff
/head/regression_head/conv/conv.5_1/Relu_output_0: 3c225e66
res4a_branch2b_scale_value_output: 3d7bf667
res4a_branch2b_scale_out_0: 3c89661a
/head/classification_head/conv/conv.4/Conv_output_0: 3cffdb75
res4a_branch2b_bias_value_output: 3b48381b
res4a_branch2b_bias_out_0: 3c80c48f
res4a_branch2b_relu_out_0: 3c726f91
res4a_branch2c_conv_out_0: 3bdd1c97
res4a_branch2c_scale_value_output: 3cf158b1
res4a_branch2c_scale_out_0: 3c8d149b
res4a_branch2c_bias_value_output: 3b8aef02
res4a_branch2c_bias_out_0: 3c7f0942
res4a_residual_add_out_0: 3c935295
res4a_relu_out_0: 3c96c5a7
res4b_branch2a_conv_out_0: 3c5e5b55
res4b_branch2a_scale_value_output: 3c6a062e
res4b_branch2a_scale_out_0: 3c85e011
res4b_branch2a_bias_value_output: 3b368992
res4b_branch2a_bias_out_0: 3c84a9e9
res4b_branch2a_relu_out_0: 3c3e1dd3
res4b_branch2b_conv_out_0: 3bdb06ea
res4b_branch2b_scale_value_output: 3d8f719b
res4b_branch2b_scale_out_0: 3cb1b702
res4b_branch2b_bias_value_output: 3b748a59
res4b_branch2b_bias_out_0: 3cae481f
res4b_branch2b_relu_out_0: 3c3e05b4
res4b_branch2c_conv_out_0: 3b9f3d4f
res4b_branch2c_scale_value_output: 3d21bbc5
res4b_branch2c_scale_out_0: 3c83ba9b
res4b_branch2c_bias_value_output: 3b8e86e8
res4b_branch2c_bias_out_0: 3c67e358
res4b_residual_add_out_0: 3c84cff9
res4b_relu_out_0: 3c9895da
res4c_branch2a_conv_out_0: 3c5d2793
res4c_branch2a_scale_value_output: 3c6025b8
res4c_branch2a_scale_out_0: 3c489530
res4c_branch2a_bias_value_output: 3b042aa9
res4c_branch2a_bias_out_0: 3c476c5f
res4c_branch2a_relu_out_0: 3c2a949a
res4c_branch2b_conv_out_0: 3b9a1f53
res4c_branch2b_scale_value_output: 3d9222d9
res4c_branch2b_scale_out_0: 3c8a0e2f
res4c_branch2b_bias_value_output: 3b401ad5
res4c_branch2b_bias_out_0: 3c8792aa
res4c_branch2b_relu_out_0: 3c39a3b8
res4c_branch2c_conv_out_0: 3b6dea3b
res4c_branch2c_scale_value_output: 3d328912
res4c_branch2c_scale_out_0: 3c3c9220
res4c_branch2c_bias_value_output: 3b21ede4
res4c_branch2c_bias_out_0: 3c575422
res4c_residual_add_out_0: 3c898a7b
res4c_relu_out_0: 3c8d1ede
res4d_branch2a_conv_out_0: 3c1bf27b
res4d_branch2a_scale_value_output: 3c6c9001
res4d_branch2a_scale_out_0: 3c4b020d
res4d_branch2a_bias_value_output: 3ae57041
res4d_branch2a_bias_out_0: 3c44029b
res4d_branch2a_relu_out_0: 3c333797
res4d_branch2b_conv_out_0: 3baece7a
res4d_branch2b_scale_value_output: 3ddd5cf7
res4d_branch2b_scale_out_0: 3c875520
res4d_branch2b_bias_value_output: 3b427694
res4d_branch2b_bias_out_0: 3c8763dd
res4d_branch2b_relu_out_0: 3c38287b
res4d_branch2c_conv_out_0: 3b4ec142
res4d_branch2c_scale_value_output: 3d3906c5
res4d_branch2c_scale_out_0: 3c49f878
res4d_branch2c_bias_value_output: 3b60942d
res4d_branch2c_bias_out_0: 3c4e2db9
res4d_residual_add_out_0: 3c88d013
res4d_relu_out_0: 3c919f00
res4e_branch2a_conv_out_0: 3c199ded
res4e_branch2a_scale_value_output: 3c75973f
res4e_branch2a_scale_out_0: 3c4299b2
res4e_branch2a_bias_value_output: 3af43e3e
res4e_branch2a_bias_out_0: 3c423902
res4e_branch2a_relu_out_0: 3c2a17a7
res4e_branch2b_conv_out_0: 3b739dc3
res4e_branch2b_scale_value_output: 3dd1599b
res4e_branch2b_scale_out_0: 3c841e30
res4e_branch2b_bias_value_output: 3b4c136f
res4e_branch2b_bias_out_0: 3c88d9a6
res4e_branch2b_relu_out_0: 3c43b290
res4e_branch2c_conv_out_0: 3b410867
res4e_branch2c_scale_value_output: 3d43620e
res4e_branch2c_scale_out_0: 3c52b963
res4e_branch2c_bias_value_output: 3b4a1893
res4e_branch2c_bias_out_0: 3c548435
res4e_residual_add_out_0: 3c8534e9
res4e_relu_out_0: 3c8ac6bb
res4f_branch2a_conv_out_0: 3c1fb176
res4f_branch2a_scale_value_output: 3c939e38
res4f_branch2a_scale_out_0: 3c3dcde3
res4f_branch2a_bias_value_output: 3ad7e7ae
res4f_branch2a_bias_out_0: 3c4c7ad4
res4f_branch2a_relu_out_0: 3c347518
res4f_branch2b_conv_out_0: 3b86cd2f
res4f_branch2b_scale_value_output: 3dbf39f8
res4f_branch2b_scale_out_0: 3c849416
res4f_branch2b_bias_value_output: 3b2d53f2
res4f_branch2b_bias_out_0: 3c89f945
res4f_branch2b_relu_out_0: 3c533d20
res4f_branch2c_conv_out_0: 3ba504a8
res4f_branch2c_scale_value_output: 3d3a60dd
res4f_branch2c_scale_out_0: 3c8c041c
res4f_branch2c_bias_value_output: 3b27a15d
res4f_branch2c_bias_out_0: 3c879bc3
res4f_residual_add_out_0: 3c91ae76
res4f_relu_out_0: 3c8251fd
res5a_branch2a_conv_out_0: 3c103459
res5a_branch1_conv_out_0: 3bbd33e8
/backbone/fpn/inner_blocks.1/Conv_output_0: 3c38ae0b
res5a_branch2a_scale_value_output: 3c761930
res5a_branch2a_scale_out_0: 3c2875e9
res5a_branch1_scale_value_output: 3ccec19c
res5a_branch1_scale_out_0: 3c673e9f
/head/regression_head/conv/conv.4/Conv_output_0: 3c921c8d
/head/regression_head/conv/conv.5/Relu_output_0: 3c1f1b56
/head/classification_head/conv/conv.5/Relu_output_0: 3c80b39e
/head/classification_head/conv/conv.6/Conv_output_0: 3c955e3d
res5a_branch2a_bias_value_output: 3ad701be
res5a_branch2a_bias_out_0: 3c2461ff
res5a_branch1_bias_value_output: 3ae33db4
res5a_branch1_bias_out_0: 3c734117
classification_head_7x7: 3e6c53cb
/head/regression_head/conv/conv.6/Conv_output_0: 3c23df7e
regression_head_7x7: 3bd0610e
/head/regression_head/conv/conv.7/Relu_output_0: 3bf4234d
res5a_branch2a_relu_out_0: 3bdccfe7
/head/regression_head/conv/conv.3_4/Relu_output_0: 3d01ecec
/head/classification_head/conv/conv.6_3/Conv_output_0: 3d37c039
res5a_branch2b_conv_out_0: 3af77674
/head/classification_head/conv/conv.6_2/Conv_output_0: 3d0440c1
res5a_branch2b_scale_value_output: 3dd266f2
res5a_branch2b_scale_out_0: 3c57d64d
/head/regression_head/conv/conv.1/Relu_output_0: 3d58dec3
res5a_branch2b_bias_value_output: 3b01b754
res5a_branch2b_bias_out_0: 3c55a15c
res5a_branch2b_relu_out_0: 3c55a15c
res5a_branch2c_conv_out_0: 3bde94ef
res5a_branch2c_scale_value_output: 3d0d262c
res5a_branch2c_scale_out_0: 3cc2f392
res5a_branch2c_bias_value_output: 3b071ae1
res5a_branch2c_bias_out_0: 3cbedd99
res5a_residual_add_out_0: 3cf060dc
res5a_relu_out_0: 3c9b9083
res5b_branch2a_conv_out_0: 3c2443c4
res5b_branch2a_scale_value_output: 3c836465
res5b_branch2a_scale_out_0: 3c7542f0
res5b_branch2a_bias_value_output: 3addfa22
res5b_branch2a_bias_out_0: 3c6295c8
res5b_branch2a_relu_out_0: 3c278d74
res5b_branch2b_conv_out_0: 3b9340d4
res5b_branch2b_scale_value_output: 3d5c9e06
res5b_branch2b_scale_out_0: 3c8a9c07
res5b_branch2b_bias_value_output: 3b6dafd1
res5b_branch2b_bias_out_0: 3c7fe0d7
res5b_branch2b_relu_out_0: 3c2b5648
res5b_branch2c_conv_out_0: 3bc70ef6
res5b_branch2c_scale_value_output: 3d5d3d48
res5b_branch2c_scale_out_0: 3cf1368d
res5b_branch2c_bias_value_output: 3c4ab74e
res5b_branch2c_bias_out_0: 3ceb331a
res5b_residual_add_out_0: 3ceb48f1
res5b_relu_out_0: 3c9b7849
res5c_branch2a_conv_out_0: 3c286cda
res5c_branch2a_scale_value_output: 3c1249d7
res5c_branch2a_scale_out_0: 3bdd4e37
res5c_branch2a_bias_value_output: 3a4e32a0
res5c_branch2a_bias_out_0: 3bd9ee92
res5c_branch2a_relu_out_0: 3b89f972
res5c_branch2b_conv_out_0: 3b002023
res5c_branch2b_scale_value_output: 3e2f19be
res5c_branch2b_scale_out_0: 3cb8656f
res5c_branch2b_bias_value_output: 3ae1975e
res5c_branch2b_bias_out_0: 3ca91fa0
res5c_branch2b_relu_out_0: 3c0a0f50
res5c_branch2c_conv_out_0: 3b5fe6a0
res5c_branch2c_scale_value_output: 3e4b6073
res5c_branch2c_scale_out_0: 3da0a60a
res5c_branch2c_bias_value_output: 3c1a73f6
res5c_branch2c_bias_out_0: 3d9c154c
res5c_residual_add_out_0: 3d9c154c
res5c_relu_out_0: 3d3ecadf
/backbone/fpn/inner_blocks.2/Conv_output_0: 3c778d5a
/backbone/fpn/layer_blocks.2/Conv_output_0: 3cfe27bc
/head/classification_head/conv/conv.7_4/Relu_output_0: 3d05af88
/head/classification_head/conv/conv.3/Relu_output_0: 3d025518
regression_head_25x25: 3c29565f
/head/regression_head/conv/conv.7_1/Relu_output_0: 3bcba83d
/head/regression_head/conv/conv.3_1/Relu_output_0: 3cb7cb0b
/head/classification_head/conv/conv.7_1/Relu_output_0: 3c92c9ba
/head/regression_head/conv/conv.7_4/Relu_output_0: 3bb036a1
/head/regression_head/conv/conv.5_4/Relu_output_0: 3c3663e0
/head/regression_head/conv/conv.7_2/Relu_output_0: 3bc04882
/head/regression_head/conv/conv.6_2/Conv_output_0: 3c35d257
/head/classification_head/conv/conv.7_2/Relu_output_0: 3cb3f39b
/head/classification_head/conv/conv.2_1/Conv_output_0: 3d7d64f4
/head/classification_head/conv/conv.4_3/Conv_output_0: 3d6919c8
/head/classification_head/conv/conv.4_1/Conv_output_0: 3d0fb5ad
/head/classification_head/conv/conv.5_3/Relu_output_0: 3d086dd4
classification_head_13x13: 3e57f6b1
/head/classification_head/conv/conv.5_1/Relu_output_0: 3c989fbc
/head/classification_head/conv/conv.6_4/Conv_output_0: 3d6ffe8d
/backbone/fpn/Resize_1_output_0: 3c886699
/head/regression_head/conv/conv.4_4/Conv_output_0: 3cba04bf
nmsopt_output: 3f95a0e2
/backbone/fpn/Add_1_output_0: 3cacaceb
/head/classification_head/conv/conv.1_1/Relu_output_0: 3d68ceb4
/head/classification_head/conv/conv.5_4/Relu_output_0: 3d318f63
/head/classification_head/conv/conv.2_4/Conv_output_0: 3e0500c2
/head/classification_head/conv/conv.6_1/Conv_output_0: 3cbf35a9
/head/classification_head/conv/conv.1/Relu_output_0: 3d81864b
/head/regression_head/conv/conv.4_1/Conv_output_0: 3c99bb24
classification_head_100x100: 3e272798
/backbone/fpn/extra_blocks/p6/Conv_output_0: 3d774ea0
/head/classification_head/conv/conv.0_2/Conv_output_0: 3d7374c2
/head/regression_head/conv/conv.0_2/Conv_output_0: 3d4cab4a
/backbone/fpn/layer_blocks.0/Conv_output_0: 3d3ad68e
/backbone/fpn/extra_blocks/Relu_output_0: 3d85f83b
/head/classification_head/conv/conv.1_2/Relu_output_0: 3d74b66e
/head/classification_head/conv/conv.0_3/Conv_output_0: 3de5ba8e
/head/regression_head/conv/conv.1_2/Relu_output_0: 3d26a93f
/head/regression_head/conv/conv.0_3/Conv_output_0: 3dd5a632
/backbone/fpn/Resize_output_0: 3c778d5a
/backbone/fpn/extra_blocks/p7/Conv_output_0: 3daf4df0
/head/classification_head/conv/conv.2_2/Conv_output_0: 3d878462
/head/classification_head/conv/conv.1_3/Relu_output_0: 3dc883cd
/head/regression_head/conv/conv.2_2/Conv_output_0: 3d5e0420
/head/regression_head/conv/conv.1_3/Relu_output_0: 3daf0aa7
/backbone/fpn/Add_output_0: 3c886699
/head/classification_head/conv/conv.3_2/Relu_output_0: 3d2110e2
/head/classification_head/conv/conv.2_3/Conv_output_0: 3dd75743
/head/classification_head/conv/conv.0_4/Conv_output_0: 3e31ec39
/head/regression_head/conv/conv.3_2/Relu_output_0: 3cba1b90
/head/regression_head/conv/conv.2_3/Conv_output_0: 3d9b1857
/head/regression_head/conv/conv.0_4/Conv_output_0: 3e0918fa
/backbone/fpn/layer_blocks.1/Conv_output_0: 3d040e44
regression_head_100x100: 3c8a6762
anchor_output: 3c4aea16
/head/classification_head/conv/conv.4_2/Conv_output_0: 3d1ef02e
/head/classification_head/conv/conv.3_3/Relu_output_0: 3d5ff4bf
/head/classification_head/conv/conv.1_4/Relu_output_0: 3e0a1c5c
/head/regression_head/conv/conv.4_2/Conv_output_0: 3c94279a
/head/regression_head/conv/conv.3_3/Relu_output_0: 3ce91b35
/head/regression_head/conv/conv.1_4/Relu_output_0: 3dc9caed
regression_head_13x13: 3bf4ff9f
/head/regression_head/conv/conv.0/Conv_output_0: 3d923574
/head/classification_head/conv/conv.2/Conv_output_0: 3d78acd2
/head/regression_head/conv/conv.2/Conv_output_0: 3d72485d
classification_head_25x25: 3e333d71
/head/regression_head/conv/conv.6_4/Conv_output_0: 3c46cd8e
/head/classification_head/conv/conv.4_4/Conv_output_0: 3d894c84
/head/regression_head/conv/conv.1_1/Relu_output_0: 3d4148eb
/head/regression_head/conv/conv.6_3/Conv_output_0: 3c44e25e
/head/regression_head/conv/conv.0_1/Conv_output_0: 3d6c5462
/head/classification_head/conv/conv.0_1/Conv_output_0: 3d87a3b9
/head/classification_head/conv/conv.3_1/Relu_output_0: 3d0e8350
/head/regression_head/conv/conv.2_4/Conv_output_0: 3da1bf9e
/head/regression_head/conv/conv.4_3/Conv_output_0: 3cbb941a
/head/regression_head/conv/conv.7_3/Relu_output_0: 3ba5157a
/head/regression_head/conv/conv.2_1/Conv_output_0: 3d677cee
/head/classification_head/conv/conv.7/Relu_output_0: 3c7a7f92
